memory_initialization_radix=16;
memory_initialization_vector=BCE205C203A2BB81B8E7A7AEA8EFF1EEE5FA1311051204060A000004B7 0A09050108FCFD02040505FD080303F90406090603090802FE000004B7 C3E201E9D5D8E3C7F011EFE9000918EE01162D37F8F3F30C01000004B7 17060F0B0AEEE6F5DBD6F2E4F5D8EDF4E4E5F118F9F9140B15000004B7 DCE1E1E99EDADFBBCEBDEFE9E0D7ECEEFBE5FE1EF4EE00FB16000004B7 05091103F2E1DBE2A3CEC6CCB5BFF4E3DD04F602E7F3061C17000004B7 08010E141408E9E9E3E7F0CEB5C3F700F7CB0113042415FAFAFFFFFF2E 06060700FBFBFD0A05FB08FF04FD0903FA03F8FCEDEAF8F5EFFFFFFF2E FDF5E3EBFF09F8E6D5ED1D1F06EE04313B362820F600FBFE0AFFFFFF2E F4F90306F8F40A01060907F50B191E1D13F0DDE3081A08F2DAFFFFFF2E FAECE0E6ED0AF4CACEDAFBF4F0DDE8FF110E240F000B122E33FFFFFF2E CBE3E7FFF8ECE0E9F1081108EFF7121226392E08F4011A2307FFFFFF2E;
