memory_initialization_radix=16;
memory_initialization_vector=04142732151018222C1F1E1A2226032310181EFD0710042108FFFFFE8D F8FD07F4F0F7F5FEF1F9F8F7F4F2F5F904F7FE01F0FBF60503FFFFFE8D 0E0E04FAFD020C0807E90605F5DBF210EEF3F317FCFB020B03FFFFFE8D 02F601090408FEECF6FE0EF402F7F206F20007FD05FC080813FFFFFE8D 0B2A2519120F2528181310211D121D0D251218FEF812FE05FDFFFFFE8D 141101120AF4FE090B00FBFAFB15080BFC010C1003FDF21411FFFFFE8D 03F4F9CFE706D1D0EDE5D2B1EF07EAE3EA1111011F12030F05FFFFFD1A F7F3EDF2FBF6F8030805090609FBFEFAF8F5FAFAFEFDF0FBFAFFFFFD1A 17180B00F50BFE190C05F60710090F2B2B1F131709FE02F600FFFFFD1A 01F70B0901133B382B1416372D14EE09ECF1F1DC0F0A07F7EAFFFFFD1A FFECD7C8E009F3DED20B0ADCD5DF0711F508F7FE1028160D11FFFFFD1A 0D0C191FEB0815130D05ED00110BF313FFFFEDFFE8F901F1F4FFFFFD1A;
