memory_initialization_radix=16;
memory_initialization_vector=061CE8D0F719FADFEDFD000610100C0030160207FCFADEE106FFFFFF8B 0AF8FCFA0006F907F7F8F9FBF1F3F8FDF6F8F4FFFDFF020702FFFFFF8B 151AFBFD06000216231D222D362910F4FAEF0DF6EBEEFE0B09FFFFFF8B 03FF08FFFCFA0901F405E4D1C2F507E6F5010C070D1B221C20FFFFFF8B FBF6E4E5EEFEF6EEF71512060F151E0E141C1A10FCF7ECEFE4FFFFFF8B F8FBE9F3F2DFE0FA0DFAEEF6E9F805030C0E0F1502F5010611FFFFFF8B E8F7000CFFECE0130722FB2226FB1BCEFDD5EDE2F6EFD4E0D5000000A7 F8FFFAF806FAFD0104FA020002F7F5FB030A070206030D0911000000A7 F6EFF0EE0B08111D1E1FE4F5FE0402A4C5DCC8B6120C070502000000A7 FFFD0BFBFFFBFA02E8EA10100D040F030A1D1416E2EAFEFDFC000000A7 ECF4FEEB0516061E1B0D06070D1702F5E801CDC002FB0FECF2000000A7 ECE2EDEBEF02151707E925171312FE260806F9F2FBF9F1EBEE000000A7;
