memory_initialization_radix=16;
memory_initialization_vector=E819402A10E8F42A1707E21227210FB3122C2B0DE52A312E0EFFFFFB74 FDF9E7E9DCF2F5EEEAECF6F7E5F4EAF2FAEAF6EFE8E7E3F1EDFFFFFB74 02F6E9F1FB0BFA0006F406FB0C16F71D191B0BF40A03F308FEFFFFFB74 050A091004FB09101C2B0C0BF9FC0306FC010BFD0A0203EB09FFFFFB74 05E6EE0215FEFAED0F1AFCF4FF212305F1F91E220A0C143023FFFFFB74 040E1217200F0D111E120E101F190F0B0817FBFB1413FAFD0CFFFFFB74 F2FC052002EE0200040AF80AFC1518E5E6F0F612EB0603EF19FFFFFC63 F0F7FAFF05EFFE02F7F7E8F6F7F7F9EFFFFFFAF5F5F6E8ECF1FFFFFC63 0AFF110FFBEC1111130FDC03090B02DDFD1D0D03FB0005140BFFFFFC63 FAFF0C010819040313FD0502ECFCF70216F1F0FB03201500F1FFFFFC63 382D0EEBFC1B3A10F7F6044211F6EBF516120206F406040006FFFFFC63 0DFBF9FCE8391412F0F32D2F270E0A49554B00DD263B2F36EDFFFFFC63;
