memory_initialization_radix=16;
memory_initialization_vector=B29ECEC0B7D5CCCABCA10903F0D29B0E1F0903B91B162D16AC000003FF 0303FE01060407FB08FF050000FC030105FBF80701FA0BF805000003FF D1E3B8C9C51212F7EEC821250FFEE5081504F2E2F7090A0DF9000003FF 05FF0A080DF7F6F1E7E50805F7E8DE06050AF9E60205FAF9F4000003FF 99C8C5CCD1A3E9F6DFECE60512F607220A30FA16F3022D2323000003FF 0CF713050D10FCFFFBFEFB1119F8281119262F0003250E24EF000003FF 0404C3AC03160BF2BDFC0A1AF1D301F11BF8DD16F01EF5E014FFFFFE92 E9E9F80C09EAECFBF6F7F0E901F9FFF0F0F7EEF9E8E9F6EFEBFFFFFE92 F6F2F9F5F90616171605FC180D15FE1527211A14F8090405FBFFFFFE92 04FE0D1421190FF4C8EDEFF809F8F4FEF309080A0CFCF4EFF4FFFFFE92 1A0614EFF113372E2A0A0C1E2412150422331A1BEE1D3E200CFFFFFE92 FE0F03F010100E261CED0B08011218E80AFE0DF90509D105F5FFFFFE92;
