memory_initialization_radix=16;
memory_initialization_vector=EDE4FDEBDDD70E15E6D8C90402DCCCC3F9EFBCB2D0E3F9CCC7000002B0 0A0C030C08FC08060C0B040806FD000607070C02FAFA0A0601000002B0 DEFE1DFFF8DAF907F5F3D2FD05E6E9F4060BFFF7DFF301F9E5000002B0 07FD070410FC0300F3ECFDFBFE0C00EBF602090DF21404F9FA000002B0 B8D608FA05ABC3F801EFC6D5EB04D2DDCF0109C2ECF8E410E9000002B0 13160C00FB060E0D13F601110E0F081411130EF5151D22FDE7000002B0 09CBDD2531EE0306310F02352D25110B22140FEE0DF81207F2FFFFFE1D F8FC06FCF503F807F2FCF901F4F8F4F0FBFAF2F6E2EEF4F9F9FFFFFE1D EBE42E3922F70F3029F904262502F2151F060D070E07F8FBFFFFFFFE1D 00E6B6B3F9EEF3EB312ECCCF011901D7EB071806DCEBFE02FEFFFFFE1D 151CFF0F08100D1CFA1315121E180F091F17171703301004F5FFFFFE1D FFE5D9ECF6F2D9DFED02F8F2EC0916F5F00802130C03F00000FFFFFE1D;
