memory_initialization_radix=16;
memory_initialization_vector=00F904FE02050305FD0601F30408FDF9FB0203FAFCF9FCFAFCFFFFFD72 FBF2F902F2F3FDFFF7F301F5F200F3F3FDFC00F1F7F7F5F5FCFFFFFD72 0207FE02F9FF01FB0501FC0700F6FDFF0600F806FEF6FFFBF8FFFFFD72 00F6F80006FDFEFC000108F4FEF70003FC04F9F709F3FAF5F9FFFFFD72 FDF60607FAFA09FDF6F7FF00F700FEF9FBFE0504FE03F6F5F8FFFFFD72 04FCFE01FC02FCF801FCF707FF04FCFD03F4FFFAF701FF03F9FFFFFD72 D92134FD00BAEBFEF4EFA0A9E5DEEAD8D1DFFAE70B07FFF5E500000384 010803060201FEFE070400FDFBFB080000FB02F9FD0107040800000384 F2F801FAFEC9D3D5F4040AE6DDF910EFFE1405000D15170E0000000384 0D1312F6FDF2000F0AFFE0EE03FF09D8FBEEFBF517F6E4020800000384 E3EDF42603B6A0D6FAEBB9BBDDEFE4E2E0F4F10DF4050F110000000384 08FB2417FCFDEA0918FBDFC4ED0EFFFFF00202FF0F121206F700000384;
