memory_initialization_radix=16;
memory_initialization_vector=8FC2AFACAABBC6D09A92D80F0DF9E5E516EAFEADE1EFE3D8C000000390 0A080A020B090508FD00FC03080506080809F9F90B0B0508FF00000390 EAC0A9C5C402040AF0EE191F121212FEF3E6F3EC0502FDF6F300000390 170CF901FD00050603E2D7EFF2E4CE041412FE02FC07FF060600000390 E6C6B7DEC7FAE3DD06E8FD04FA210101E307FF06F9F1EFE4F900000390 14231403F0C8E404E6CFF00EE5F8FCE90B120B0CEAF8FCF5F600000390 1A02FBFED6170615150807070E1621FB09FC0E070EFAEE07F7FFFFFC83 F5F1EBDFE4F8F4FEFDFAFBFDFAF904F6FD000406F2FE040500FFFFFC83 08F2D2C4AF1A0F17F90A150902E9E301F4EDE7F103EFF6FCF6FFFFFC83 05FDF80D0E2F403D512B1507F9050F040E03F6F6F404F5F7FFFFFFFC83 EEECE9CECC17F0F1090F0D09EE0F1C06120E0D0F13010DFEECFFFFFC83 060F0D131AF2EC1704311EFEF5000C0510FC0D102A08FA1410FFFFFC83;
